00111100111001110001011010010000
00111101001110001001100000101101
00111101100000010010110111111101
10111100110110100110000111100001
10111101111100000011000001111111
10111100111100110110001001100011
00111110000011011001111010000100
00111011100011001011011100110011
00111101110000110011101111011010
10111110000110111000101110101100
00111110100101110111111011100101
10111101111001100110101110100101
10111110010101100100000001100100
10111110101010001010111011111011
10111110011110110001101011110100
10111110001001110100111110110101
10111110000111111010100101111110
10111101111100101110100111001101
10111110101010100001010011001111
00111110000100000010000011000101
10111110011100100100011101000101
00111101100010010011001100011010
00111101101100011111001011011100
10111110100101010011111101111101
00111101100111110010100010000101
00111110100101111110111001001110
10111101101001000001010111110100
10111101001010000010111010001000
00111101101101001010001111000110
10111110011011111100010100000101
00111110100101110000111101111100
00111110110110111010010111100011
10111100110101111011011000110101
00111110101001011010000111001011
10111101101001001010000101101010
00111101001011010111000011100111
10111100111101010001101011001010
00111110001101110011111010101011
00111110110000101001100111011001
00111101101011111101010000111001
00111110011011110100111100001110
00111101101001001001100010000001
10111100101001101110111111000011
10111101000100000001100111110100
00111110100101110011101010111101
00111100111001101010100110000010
10111101001100100000000100000100
00111101111001000100010100100100
10111110100101001011001100111110
10111110110001011000100011100011
00111110011000101001010010011010
00111110111100111011100011100101
00111110111001101000110110111001
00111101011100001110001111001110
10111110100110001011101011000111
00111101000101100101001010111101
10111110001100010110101100010010
10111110000101001100010001001000
00111110100100101111010110011001
00111101001111001001001101100100
10111110100100010001100111001110
10111110011010010110011001111011
10111110010111110110001010110111
00111110000111111110001100101010
00111110100011111011010101001010
00111100111101101000001101111111
10111110011010101010000100001110
10111100010100101111101000001101
10111110000111101101011111000111
10111110011100100111011001110101
10111101100011001111010110110010
00111110000011000110101111001111
00111110110010001100000101010101
00111110111001110110010010101110
00111110101010100100011111101101
00111101100110000000000010101000
10111101101111100101000010000011
10111101101100100011101110111100
00111101100100011010111010110100
00111101010111001100010000100110
10111101111101111010111101100100
10111101001110000101000111101100
00111110101011000011110010011111
00111100100101100101010011010110
00111101000110111011000001100000
00111101100001010011101110001110
10111110000101011111010001011110
10111110010111011110000101011101
10111110100101101111000101010110
00111101110010101101001101100011
10111110001100011010001000011111
00111110001011101110001110010011
00111110101101101000010111011011
10111101111100101100111110010110
10111101100011110001111101011000
00111101100101001001101101100011
00111110000011100111101010110111
10111110100001101111011111100100
10111011110110001000001011100011
00111110010010101111111101101101
10111110001111011110101111011001
00111101001110110111011000101110
00111101011101110100001001010111
00111110101001010100100010101010
10111110010100101101010011010100
10111101001101101101110010100000
00111110100101110110101100111100
00111110111011100001010001111011
00111110111100111111110100001101
00111110010101011111000110111111
00111101101110110001001010010000
10111110101001001110011110101011
10111110010001111001000100111111
10111110000100000010000011000101
00111101111110111111000111101001
00111110100101100111111101001110
00111101110110000111100100111110
10111110011100101001101100101000
10111110101001101111101010000011
10111110000000010101110010100111
10111101100011001100011100001000
00111101101100001001001100010000
10111101110100100001000000111000
10111101011110000110101000001010
10111110000010100011101011010010
10111101101000110100011001010110
00111110010001111111101000011010
00111110000101111000100000010010
10111110000000110000110100110000
10111110011111111001010010000101
00111110011011110110010000000110
00111110000010100111110001011011
00111101100000100100001011010000
00111101011110100101011011011110
00111110100000000011000001111111
10111110011010110110100001001001
10111101001111101111111100011001
00111110100000011101100100101011
00111110101000001001101111111010
00111110011101100011000010101001
10111110000010100101001001101001
00111101101111000000100001110100
00111101111100101001000010101100
10111101100001101100000100011010
00111110000101100000000101111001
00111100101001011101001010001101
00111110010001010100110111101000
00111110011110011100011000101010
10111101100000100011100011011010
10111110110111001010000000111100
00111110101000110100110101101010
00111101110110101101010000101100
10111110100000001000010001100010
10111110111010111100010000001001
10111110110101100000111111100100
00111100110111000110010111000111
10111110100010010111011000110110
10111101101000010001001010111010
00111110011101100000010000011001
00111101000110011001000000101010
10111110011111000110110100011110
10111110001100010000011101110100
10111101111010110101010111101111
10111110000101011111110000111011
00111110110100100101110110001101
10111110100010010101111111101110
10111101110100100111111001010010
10111110100000000010110010010001
00111110001100000000111001101011
10111110000101011001101100111101
00111101100110110110000100110101
00111110100111100001011100011010
00111110111101110011101010111101
00111110110011100001010111001010
00111110100010100100000000010000
10111110011001010011001110110001
10111110100100100000100001011011
10111100100110010101101010101111
00111110100001010110100101101110
10111101100111010011111111100010
10111110100111111011000101011011
10111110000010111011000110101111
00111110000110101101111010101001
00111110110100101100011001101001
10111110000001001101110100101111
10111101000110011011000010101011
10111110101110000001100001000000
10111110100110001100111001110000
00111110010100010000111101010010
10111110000011000010110011100100
10111110101001011000011110010100
10111101111101100000011010111000
00111110110111000001100100111011
00111110001000101000110010111101
00111110101001000111011011110011
10111101111111110111011110101111
00111100011100011001010100000011
10111100100111011010100111001010
10111110011000010111110000011100
10111110010010000100001110000001
00111101101000010011100110000110
10111110100101010000011100100001
00111101111000111101000111001100
00111110011111001000011101010101
00111110010101000010111011011100
00111101100001101010000000010010
00111110100101111101111111100011
00111110011001100001111110011111
00111111000001000110000000000011
10111110010111101111000111111110
10111110010101101110001011101011
10111100100101111101001010000101
10111110011011001110000111000110
10111110001000101010011011110100
00111110011100101100011110111001
00111110011100011011011100010111
10111100011101100001111011010110
10111110010010010010011110010001
10111110001011111000100010111001
10111110101110011111110100110111
00111110100111011101001011110010
00111110110001111101110101000100
00111110101011100001000111011100
00111110010011011101100000110000
00111110100100000100110000000110
00111110010110001010010111001110
10111101001000111000011001001101
00111100010000110111011000001100
10111110010000010011110100110010
00111101110101010010001010100111
10111110100110010011101100111010
00111100101110001000111010111101
10111101100001011100111101101000
00111110000111111010111010111100
00111110001100010101000011011011
10111101111010010011100111101011
10111101100100100100011000111001
00111110000000011001011001010011
10111110000011000110111001101110
00111110011001101111100100110011
10111110010111101100110101001011
10111101100000101101011110110110
10111100110011110010111100010010
10111011111111011101001111010110
00111101111011110101100110001010
00111110001101011100101001101101
00111110100100100101000111000010
00111110011101111101100101010101
00111100100001101001011000011100
10111110110101110001100111111000
00111100111111101100100110011111
10111110010101101010000101100010
10111110111001111000000110000100
10111110111110010001101001110110
10111110101000111101000111001100
00111110100100111111101001101110
10111110100011101000010100110100
10111110101000000111011101000111
00111110010111110111101001001110
00111101101111100101001110101000
00111101010011011100000000010010
10111110110011111111101011000010
00111100010001001010110001101101
00111101110111101101001010001001
00111101100000011100101011000001
00111110001011001111101111111100
00111110010000101000110010111101
10111110000110100110000011010100
10111101101010110010111100100011
10111101110001001001111111011000
00111110100001000000110011001000
00111101011111010001110111001101
00111101001011111000000001010110
10111110000111110100100010000000
10111110100001110101000100000101
10111110000110001011000001001011
10111110011111010101011001101101
00111110100100001011001110010010
00111110100001011001110111011100
00111110011011110010001001111101
10111110100101110111011100001000
10111110001001011100011001111110
00111110011001111011101100110000
00111110110111000101110000010100
00111100100101010001101001000011
10111110010010110000010010101011
10111101101001110111001111100010
00111100111100110110110011011111
00111101100011110011011011110000
10111101010000111000110100011110
10111110110010010101000110000011
10111110001101100101011111111011
10111110001010000111101010001101
00111110100001001000101111101011
00111110111110000011101110100011
10111001111000110011111101010101
10111100000101111100011001011011
00111110100011110001010101100010
00111101100110110010110011000111
10111110010100100001111111110011
10111110100001011101110011000110
00111100001110101100011100010001
10111110010011000101100101110101
00111110100100110100011011011100
00111101100101111001001100010100
00111010001000111100100001000111
10111110101001100000001011001001
00111101111011000001110100101010
00111110110111101010100010010111
10111110010010001010011100011110
10111110000011000001111111001001
10111110001100110011110110110000
10111110100000110101111001110100
00111110011000111110111010100010
00111110010011001000000011000111
00111110111110011100001110001011
00111110101100110001101110011011
10111110011110110111111010010001
10111111000010001001101101010010
10111110011010010101010000100010
00111110111011000011000011010011
00111110101111111100001110110101
00111110010111101001011000111110
00111110100101100010111101011010
10111100100101010101111101111000
00111101101110100101000010010100
10111100110011001010111101110001
00111101010101000000111011100000
00111110000101111110000100110011
00111110010000111011110011010011
10111110100010001000011001011001
10111110010000110010101000000110
10111101000010010101001010001111
10111110011101101011111000111000
10111101100110011100011110111101
00111110011100101101010011010100
00111111000000001011000011110010
00111110110100111010111110111000
10111101100111010100011000101100
00111101100100100111001001000011
10111110001011010001111000010001
10111110101011100011000101010001
10111101110100000101001010010011
10111110000010110111111111100001
10111100111110101011000100001100
10111110010010000111101010001101
00111101111001001101110100101111
00111110110010110111100101010011
10111101110111111100100011110011
10111110110101001000111111011010
10111101100101100000101011101001
10111101110001101011110001100010
10111110011101100110011110110110
10111100000110010111011100110101
10111101001110001101000011001100
00111110110000101110111100001011
10111110110101000001100111100011
10111110010011100011111001101100
10111101100111110111110101110100
00111110100111010111110001110000
10111110101010111011010001001110
10111110010100010100001110111111
00111110010001011110101100110001
00111101000110101100111111111010
00111101110100011000011111101000
10111110010011101101011001110111
10111101001101101011011111101101
10111110000111110001100101010000
00111110100000100001000000111000
10111101011101000101010010011011
10111101100000001001011110000101
00111101100011001110110111010101
10111110110011011000100110001011
10111110101101111111110010111001
10111101101101111001010100101101
10111110010111100100011110011001
00111110100110010101000110000011
00111110100000111100110111011101
00111101000010010110011001111011
00111110110100001011100011010000
10111110010001001000101111101011
10111110100000010100011001011111
10111101000010000010100011000011
00111110110101110111010001101001
00111101111100011010111100111010
10111110011000001111100100001001
10111110001111001100011000111111
00111110001001010101101100000011
00111110010010000011101110100011
00111110001011101001110011001011
10111110101111010110011000100111
10111100111101111011000101111101
00111101011110001011011010010101
10111100111111100001000100010010
00111110111010110001000111000111
10111110000010000101010111011010
10111110010110101111001110100001
00111101100110110001101011110100
00111110001111101100101010101100
10111110100001001011010010001101
00111101110111000111011110011010
10111110010000000111100010010110
10111110100100011010111100111010
10111110010111100110110001001100
00111110010100000101011111010001
10111110010001011101011000111001
00111101001010100011011010100000
00111110101011000100110110101001
00111110100101110011100101101101
10111110001110100001001000110000
10111110000010000111000000010001
10111101001011000011111111000100
10111110000100111110001011010110
00111110010000100111011111000100
00111110101000001101100001000101
00111110010111011011010011001100
00111110111000100101101011101110
00111110001001110110010010101110
10111110110101110011110101011100
10111110101101000100111110100000
00111110101100000100110101010101
00111110010011011110011111101010
00111101111010001100000101010101
00111110100001011001011101001110
10111110010101011111000110111111
00111110001001000100010100100100
10111110001000000001011110011000
00111110001101111000111111101111
10111110011101110011010000101111
10111110001011011011101101011010
10111101001001000000000011111100
10111110101011001001010111000000
10111110110100101000110010111101
10111110010111010010111100011011
00111101111101011110110010000001
00111110000010011011001010000001
00111110111010101101100000011011
00111101110010111010010000001110
00111100001101000011010100100110
10111110100100110111100010101011
10111101110110100101011001011000
10111101111101001011011100101100
10111110001101101100000011010111
00111110100001110101111000100000
00111110100000101100011001101001
10111110010111010011111011010101
00111110110100010011010101010100
00111110101111010101011110111100
00111101111101111010101000100110
10111101111111101001011000111110
10111101111111001011100100100100
10111110100101101100011101100101
10111110011100010011010000000101
00111110001011010100101010100001
00111101010010010110000000110001
00111110101100100100000010111000
10111110101110011001011011111011
10111110100100110011110001100000
10111101000000100001100011011111
00111110101011011110111111001000
10111101101110110001001100010110
00111110011001111100110110001010
00111110011000111011001001010111
10111101110010000010111100001110
10111101000011000110111001101110
10111110000100110101010101000111
00111101111010100110101000000001
00111110011101001001101001010110
00111101100111110101101001010011
10111110011100010000110010110011
10111110100010101100110110011111
10111101011001101111011000001110
00111101101111100010001101101100
00111110001100010100001110111111
10111101101100101101100100000110
10111101100110100111011011011001
00111110001110101100010001110010
10111110001011000011001000100011
10111110001011001100010011110000
00111110101110111011001011111111
10111110011000010001010111011111
10111110000011010100100000000010
00111110010111010100011010110010
00111110101010100010111100000110
10111101100011100011000101010001
00111101110111101000111001100001
00111110101101000001101100110011
00111101001001001101011011100100
10111101110101110100111001100110
00111100100010100011010100001101
10111101100101001100001100111011
10111110101101010100100111111001
10111101110100101101001000110101
00111110100000011100110101100000
00111101101000110111001001100000
10111110100010100011110101110001
00111101010110111010010011010111
00111110000100011110001110101000
00111110011001111011000010110100
00111110010011010101011110111100
