00000000000000000000000000000000
00111101110011001100110011001101
00111110010011001100110011001101
00111110100110011001100110011010
00111110110011001100110011001101
00111111000000000000000000000000
00111111000110011001100110011010
00111111001100110011001100110011
00111111010011001100110011001101
00111111011001100110011001100110
00111111100000000000000000000000
00111111100011001100110011001101
00111111100110011001100110011010
00111111101001100110011001100110
00111111101100110011001100110011
00111111110000000000000000000000
00111111110011001100110011001101
00111111110110011001100110011010
00111111111001100110011001100110
00111111111100110011001100110011
01000000000000000000000000000000
01000000000001100110011001100110
01000000000011001100110011001101
01000000000100110011001100110011
01000000000110011001100110011010
01000000001000000000000000000000
01000000001001100110011001100110
01000000001011001100110011001101
01000000001100110011001100110011
01000000001110011001100110011010
01000000010000000000000000000000
01000000010001100110011001100110
01000000010011001100110011001101
01000000010100110011001100110011
01000000010110011001100110011010
01000000011000000000000000000000
01000000011001100110011001100110
01000000011011001100110011001101
01000000011100110011001100110011
01000000011110011001100110011010
